#version: 0.2 - Trained by `huggingface/tokenizers`
h e
i s
T he
Ġ is
e d
Ġ b
Ġ p
Ġ s
a n
Ġ c
o w
Ġb l
i n
t e
Ġ r
Ġb r
a r
a c
u r
l e
Ġ g
e l
i c
e e
Ġg r
g e
Ġ o
l ow
Ġ y
h i
ow n
Ġbr own
a s
i ed
e r
Ġ w
ac k
p le
r an
f r
Ġbl ack
Ġo ran
Ġoran ge
Ġp in
u e
Ġbl ue
Ġ m
Ġr ed
Ġp ur
Ġpur ple
t ed
Ġpin k
el low
Ġy ellow
hi te
Ġw hite
ee n
Ġgr een
o n
Ġ d
Ġ t
u t
o t
l ed
a m
Ġp e
u s
fr ied
r y
Ġc o
e n
Ġ a
k ed
ar d
Ġs o
Ġ f
u m
he d
Ġs t
o as
oas ted
a d
u c
b er
Ġ h
Ġs te
o ked
Ġs p
ur n
Ġp o
a u
an d
i p
i l
Ġs m
l i
b e
ic k
ar in
Ġc r
a t
at o
i t
Ġ le
g g
a l
ee t
m en
a v
a p
r ied
Ġd ried
f low
flow er
m on
Ġc and
Ġcand ied
Ġsm oked
am ed
Ġste amed
Ġm us
an t
Ġr ad
Ġt urn
Ġturn ip
r o
ac hed
Ġpo ached
a b
Ġc h
o m
ee p
Ġd eep
Ġ ar
hi o
Ġs au
te ed
Ġsau teed
i r
Ġco l
Ġst ir
n ut
Ġgr il
ber ry
Ġgril led
i led
o iled
Ġ fr
Ġb oiled
Ġbrown ed
in ed
Ġbr ined
Ġp ick
Ġpick led
t y
u n
i on
r ow
ic row
Ġm icrow
av ed
Ġmicrow aved
a g
Ġt oasted
a is
c u
Ġb ar
Ġbr ais
be cu
Ġbar becu
Ġbrais ed
Ġbarbecu ed
a ted
Ġm arin
Ġmarin ated
c h
er men
Ġf ermen
Ġfermen ted
g ed
ic y
Ġa ged
c hed
an ched
Ġbl anched
Ġc ur
Ġcur ed
Ġr oasted
Ġ k
ac h
te r
Ġp ot
Ġpot ato
is h
u it
fr uit
as p
c on
Ġco con
Ġcocon ut
e gg
l ant
p lant
Ġ egg
Ġegg plant
w eet
Ġs weet
Ġc uc
um ber
Ġcuc umber
a w
o c
v e
Ġ j
ge r
e an
Ġb ean
Ġgr ap
Ġgrap e
q u
Ġs qu
as h
Ġsqu ash
a le
Ġk ale
a ge
b age
Ġc ab
Ġcab bage
a ked
r ot
Ġb aked
Ġc ar
Ġcar rot
w ed
Ġste wed
Ġb it
Ġbit ter
l ard
Ġcol lard
m el
in e
Ġc au
li flower
Ġcau liflower
o z
Ġfr oz
Ġfroz en
p p
in ach
Ġpe pp
Ġsp inach
Ġrad ish
Ġpepp er
f f
l u
Ġf lu
ff y
Ġflu ffy
Ġpe a
Ġco oked
t ard
Ġmus tard
Ġs un
Ġsun flower
s el
Ġbr us
Ġso gg
Ġsp ro
sel s
Ġbrus sels
Ġsogg y
Ġspro ut
g u
l a
u gu
Ġsp icy
Ġar ugu
Ġarugu la
o ry
Ġb urn
ic ory
Ġch icory
Ġburn t
e le
h ro
Ġc ele
Ġt om
Ġmus hro
Ġch ard
Ġcele ry
Ġtom ato
Ġmushro om
l mon
t t
y be
Ġa lmon
Ġso ybe
uc e
Ġle tt
Ġalmon d
Ġsoybe an
Ġlett uce
a te
n ion
Ġb eet
Ġo nion
n t
Ġle nt
Ġlent il
k in
p kin
z uc
Ġ asp
Ġ zuc
Ġp um
in i
ar ag
Ġw al
Ġso ur
ch ini
Ġasp arag
Ġzuc chini
Ġpum pkin
Ġwal nut
Ġasparag us
c hio
t ac
is tac
Ġp istac
Ġr aw
ic chio
Ġh ot
Ġrad icchio
Ġpistac hio
i o
he w
Ġc as
el ic
Ġy am
Ġd elic
io us
Ġcas hew
Ġdelic ious
i a
ac ad
as ty
Ġm acad
Ġt asty
am ia
Ġmacad amia
c o
f t
Ġbr oc
Ġso ft
co li
Ġbroc coli
an ut
Ġpe anut
e am
Ġcr eam
Ġcream y
a z
el nut
Ġa p
Ġh az
Ġhaz elnut
h o
k e
t ic
te n
Ġr ot
Ġar tic
ho ke
Ġrot ten
Ġartic hoke
m y
Ġs al
Ġy um
Ġsal ty
Ġyum my
c an
Ġ fried
Ġpe can
Ġr ip
Ġst ick
Ġrip e
Ġstick y
m e
p y
is py
Ġcr ispy
el ion
Ġd and
Ġh ard
Ġdand elion
Ġr ut
ab ag
Ġrut abag
Ġrutabag a
d i
Ġ en
di ve
Ġen dive
Ġcol d
Ġcr un
ch y
Ġcrun chy
e s
Ġfr es
Ġfres h
o ot
Ġsm oot
Ġsmoot h
l ic
ar lic
Ġg arlic
e as
Ġgr eas
Ġgreas y
u icy
Ġj uicy
in ger
Ġg inger
Ġpe ach
t ine
Ġc le
men tine
Ġcle mentine
a ter
Ġw ater
mel on
Ġwater melon
e ap
Ġpin eap
Ġgrape fruit
Ġpineap ple
i g
o u
p e
r ry
he rry
Ġc ant
Ġc herry
Ġf ig
al ou
Ġcant alou
Ġcantalou pe
Ġle mon
i m
s im
Ġp er
sim mon
Ġper simmon
i w
Ġk iw
Ġkiw i
c t
d e
e y
e ct
n ect
Ġ nect
Ġblack berry
on ey
Ġh oney
arin e
de w
Ġnect arine
Ġhoney dew
c he
l y
Ġ ly
che e
Ġly chee
k r
Ġo kr
Ġokr a
g o
l um
Ġp lum
an go
Ġm ango
Ġb an
an a
Ġap ple
Ġban ana
g ran
Ġr asp
Ġpo me
gran ate
Ġrasp berry
Ġpome granate
Ġf ish
Ġpo mel
Ġpomel o
el on
Ġm elon
Ġd ate
ack fruit
Ġpe ar
Ġj ackfruit
u av
an ger
Ġg uav
Ġt anger
Ġguav a
Ġtanger ine
i an
v oc
ur ian
Ġd urian
Ġa voc
ad o
Ġavoc ado
a y
Ġp ap
ar fruit
Ġst arfruit
ay a
Ġpap aya
r aw
Ġst raw
Ġstraw berry
Ġo li
Ġoli ve
r ic
Ġblue berry
Ġap ric
Ġapric ot
Ġ li
Ġt am
arin d
Ġli me
Ġtam arind
