{"<s>":0,"<pad>":1,"</s>":2,"<unk>":3,"<mask>":4,"!":5,"\"":6,"#":7,"$":8,"%":9,"&":10,"'":11,"(":12,")":13,"*":14,"+":15,",":16,"-":17,".":18,"/":19,"0":20,"1":21,"2":22,"3":23,"4":24,"5":25,"6":26,"7":27,"8":28,"9":29,":":30,";":31,"<":32,"=":33,">":34,"?":35,"@":36,"A":37,"B":38,"C":39,"D":40,"E":41,"F":42,"G":43,"H":44,"I":45,"J":46,"K":47,"L":48,"M":49,"N":50,"O":51,"P":52,"Q":53,"R":54,"S":55,"T":56,"U":57,"V":58,"W":59,"X":60,"Y":61,"Z":62,"[":63,"\\":64,"]":65,"^":66,"_":67,"`":68,"a":69,"b":70,"c":71,"d":72,"e":73,"f":74,"g":75,"h":76,"i":77,"j":78,"k":79,"l":80,"m":81,"n":82,"o":83,"p":84,"q":85,"r":86,"s":87,"t":88,"u":89,"v":90,"w":91,"x":92,"y":93,"z":94,"{":95,"|":96,"}":97,"~":98,"¡":99,"¢":100,"£":101,"¤":102,"¥":103,"¦":104,"§":105,"¨":106,"©":107,"ª":108,"«":109,"¬":110,"®":111,"¯":112,"°":113,"±":114,"²":115,"³":116,"´":117,"µ":118,"¶":119,"·":120,"¸":121,"¹":122,"º":123,"»":124,"¼":125,"½":126,"¾":127,"¿":128,"À":129,"Á":130,"Â":131,"Ã":132,"Ä":133,"Å":134,"Æ":135,"Ç":136,"È":137,"É":138,"Ê":139,"Ë":140,"Ì":141,"Í":142,"Î":143,"Ï":144,"Ð":145,"Ñ":146,"Ò":147,"Ó":148,"Ô":149,"Õ":150,"Ö":151,"×":152,"Ø":153,"Ù":154,"Ú":155,"Û":156,"Ü":157,"Ý":158,"Þ":159,"ß":160,"à":161,"á":162,"â":163,"ã":164,"ä":165,"å":166,"æ":167,"ç":168,"è":169,"é":170,"ê":171,"ë":172,"ì":173,"í":174,"î":175,"ï":176,"ð":177,"ñ":178,"ò":179,"ó":180,"ô":181,"õ":182,"ö":183,"÷":184,"ø":185,"ù":186,"ú":187,"û":188,"ü":189,"ý":190,"þ":191,"ÿ":192,"Ā":193,"ā":194,"Ă":195,"ă":196,"Ą":197,"ą":198,"Ć":199,"ć":200,"Ĉ":201,"ĉ":202,"Ċ":203,"ċ":204,"Č":205,"č":206,"Ď":207,"ď":208,"Đ":209,"đ":210,"Ē":211,"ē":212,"Ĕ":213,"ĕ":214,"Ė":215,"ė":216,"Ę":217,"ę":218,"Ě":219,"ě":220,"Ĝ":221,"ĝ":222,"Ğ":223,"ğ":224,"Ġ":225,"ġ":226,"Ģ":227,"ģ":228,"Ĥ":229,"ĥ":230,"Ħ":231,"ħ":232,"Ĩ":233,"ĩ":234,"Ī":235,"ī":236,"Ĭ":237,"ĭ":238,"Į":239,"į":240,"İ":241,"ı":242,"Ĳ":243,"ĳ":244,"Ĵ":245,"ĵ":246,"Ķ":247,"ķ":248,"ĸ":249,"Ĺ":250,"ĺ":251,"Ļ":252,"ļ":253,"Ľ":254,"ľ":255,"Ŀ":256,"ŀ":257,"Ł":258,"ł":259,"Ń":260,"he":261,"is":262,"The":263,"Ġis":264,"ed":265,"Ġb":266,"Ġp":267,"Ġs":268,"an":269,"Ġc":270,"ow":271,"Ġbl":272,"in":273,"te":274,"Ġr":275,"Ġbr":276,"ar":277,"ac":278,"ur":279,"le":280,"Ġg":281,"el":282,"ic":283,"ee":284,"Ġgr":285,"ge":286,"Ġo":287,"low":288,"Ġy":289,"hi":290,"own":291,"Ġbrown":292,"as":293,"ied":294,"er":295,"Ġw":296,"ack":297,"ple":298,"ran":299,"fr":300,"Ġblack":301,"Ġoran":302,"Ġorange":303,"Ġpin":304,"ue":305,"Ġblue":306,"Ġm":307,"Ġred":308,"Ġpur":309,"Ġpurple":310,"ted":311,"Ġpink":312,"ellow":313,"Ġyellow":314,"hite":315,"Ġwhite":316,"een":317,"Ġgreen":318,"on":319,"Ġd":320,"Ġt":321,"ut":322,"ot":323,"led":324,"am":325,"Ġpe":326,"us":327,"fried":328,"ry":329,"Ġco":330,"en":331,"Ġa":332,"ked":333,"ard":334,"Ġso":335,"Ġf":336,"um":337,"hed":338,"Ġst":339,"oas":340,"oasted":341,"ad":342,"uc":343,"ber":344,"Ġh":345,"Ġste":346,"oked":347,"Ġsp":348,"urn":349,"Ġpo":350,"au":351,"and":352,"ip":353,"il":354,"Ġsm":355,"li":356,"be":357,"ick":358,"arin":359,"Ġcr":360,"at":361,"ato":362,"it":363,"Ġle":364,"gg":365,"al":366,"eet":367,"men":368,"av":369,"ap":370,"ried":371,"Ġdried":372,"flow":373,"flower":374,"mon":375,"Ġcand":376,"Ġcandied":377,"Ġsmoked":378,"amed":379,"Ġsteamed":380,"Ġmus":381,"ant":382,"Ġrad":383,"Ġturn":384,"Ġturnip":385,"ro":386,"ached":387,"Ġpoached":388,"ab":389,"Ġch":390,"om":391,"eep":392,"Ġdeep":393,"Ġar":394,"hio":395,"Ġsau":396,"teed":397,"Ġsauteed":398,"ir":399,"Ġcol":400,"Ġstir":401,"nut":402,"Ġgril":403,"berry":404,"Ġgrilled":405,"iled":406,"oiled":407,"Ġfr":408,"Ġboiled":409,"Ġbrowned":410,"ined":411,"Ġbrined":412,"Ġpick":413,"Ġpickled":414,"ty":415,"un":416,"ion":417,"row":418,"icrow":419,"Ġmicrow":420,"aved":421,"Ġmicrowaved":422,"ag":423,"Ġtoasted":424,"ais":425,"cu":426,"Ġbar":427,"Ġbrais":428,"becu":429,"Ġbarbecu":430,"Ġbraised":431,"Ġbarbecued":432,"ated":433,"Ġmarin":434,"Ġmarinated":435,"ch":436,"ermen":437,"Ġfermen":438,"Ġfermented":439,"ged":440,"icy":441,"Ġaged":442,"ched":443,"anched":444,"Ġblanched":445,"Ġcur":446,"Ġcured":447,"Ġroasted":448,"Ġk":449,"ach":450,"ter":451,"Ġpot":452,"Ġpotato":453,"ish":454,"uit":455,"fruit":456,"asp":457,"con":458,"Ġcocon":459,"Ġcoconut":460,"egg":461,"lant":462,"plant":463,"Ġegg":464,"Ġeggplant":465,"weet":466,"Ġsweet":467,"Ġcuc":468,"umber":469,"Ġcucumber":470,"aw":471,"oc":472,"ve":473,"Ġj":474,"ger":475,"ean":476,"Ġbean":477,"Ġgrap":478,"Ġgrape":479,"qu":480,"Ġsqu":481,"ash":482,"Ġsquash":483,"ale":484,"Ġkale":485,"age":486,"bage":487,"Ġcab":488,"Ġcabbage":489,"aked":490,"rot":491,"Ġbaked":492,"Ġcar":493,"Ġcarrot":494,"wed":495,"Ġstewed":496,"Ġbit":497,"Ġbitter":498,"lard":499,"Ġcollard":500,"mel":501,"ine":502,"Ġcau":503,"liflower":504,"Ġcauliflower":505,"oz":506,"Ġfroz":507,"Ġfrozen":508,"pp":509,"inach":510,"Ġpepp":511,"Ġspinach":512,"Ġradish":513,"Ġpepper":514,"ff":515,"lu":516,"Ġflu":517,"ffy":518,"Ġfluffy":519,"Ġpea":520,"Ġcooked":521,"tard":522,"Ġmustard":523,"Ġsun":524,"Ġsunflower":525,"sel":526,"Ġbrus":527,"Ġsogg":528,"Ġspro":529,"sels":530,"Ġbrussels":531,"Ġsoggy":532,"Ġsprout":533,"gu":534,"la":535,"ugu":536,"Ġspicy":537,"Ġarugu":538,"Ġarugula":539,"ory":540,"Ġburn":541,"icory":542,"Ġchicory":543,"Ġburnt":544,"ele":545,"hro":546,"Ġcele":547,"Ġtom":548,"Ġmushro":549,"Ġchard":550,"Ġcelery":551,"Ġtomato":552,"Ġmushroom":553,"lmon":554,"tt":555,"ybe":556,"Ġalmon":557,"Ġsoybe":558,"uce":559,"Ġlett":560,"Ġalmond":561,"Ġsoybean":562,"Ġlettuce":563,"ate":564,"nion":565,"Ġbeet":566,"Ġonion":567,"nt":568,"Ġlent":569,"Ġlentil":570,"kin":571,"pkin":572,"zuc":573,"Ġasp":574,"Ġzuc":575,"Ġpum":576,"ini":577,"arag":578,"Ġwal":579,"Ġsour":580,"chini":581,"Ġasparag":582,"Ġzucchini":583,"Ġpumpkin":584,"Ġwalnut":585,"Ġasparagus":586,"chio":587,"tac":588,"istac":589,"Ġpistac":590,"Ġraw":591,"icchio":592,"Ġhot":593,"Ġradicchio":594,"Ġpistachio":595,"io":596,"hew":597,"Ġcas":598,"elic":599,"Ġyam":600,"Ġdelic":601,"ious":602,"Ġcashew":603,"Ġdelicious":604,"ia":605,"acad":606,"asty":607,"Ġmacad":608,"Ġtasty":609,"amia":610,"Ġmacadamia":611,"co":612,"ft":613,"Ġbroc":614,"Ġsoft":615,"coli":616,"Ġbroccoli":617,"anut":618,"Ġpeanut":619,"eam":620,"Ġcream":621,"Ġcreamy":622,"az":623,"elnut":624,"Ġap":625,"Ġhaz":626,"Ġhazelnut":627,"ho":628,"ke":629,"tic":630,"ten":631,"Ġrot":632,"Ġartic":633,"hoke":634,"Ġrotten":635,"Ġartichoke":636,"my":637,"Ġsal":638,"Ġyum":639,"Ġsalty":640,"Ġyummy":641,"can":642,"Ġfried":643,"Ġpecan":644,"Ġrip":645,"Ġstick":646,"Ġripe":647,"Ġsticky":648,"me":649,"py":650,"ispy":651,"Ġcrispy":652,"elion":653,"Ġdand":654,"Ġhard":655,"Ġdandelion":656,"Ġrut":657,"abag":658,"Ġrutabag":659,"Ġrutabaga":660,"di":661,"Ġen":662,"dive":663,"Ġendive":664,"Ġcold":665,"Ġcrun":666,"chy":667,"Ġcrunchy":668,"es":669,"Ġfres":670,"Ġfresh":671,"oot":672,"Ġsmoot":673,"Ġsmooth":674,"lic":675,"arlic":676,"Ġgarlic":677,"eas":678,"Ġgreas":679,"Ġgreasy":680,"uicy":681,"Ġjuicy":682,"inger":683,"Ġginger":684,"Ġpeach":685,"tine":686,"Ġcle":687,"mentine":688,"Ġclementine":689,"ater":690,"Ġwater":691,"melon":692,"Ġwatermelon":693,"eap":694,"Ġpineap":695,"Ġgrapefruit":696,"Ġpineapple":697,"ig":698,"ou":699,"pe":700,"rry":701,"herry":702,"Ġcant":703,"Ġcherry":704,"Ġfig":705,"alou":706,"Ġcantalou":707,"Ġcantaloupe":708,"Ġlemon":709,"im":710,"sim":711,"Ġper":712,"simmon":713,"Ġpersimmon":714,"iw":715,"Ġkiw":716,"Ġkiwi":717,"ct":718,"de":719,"ey":720,"ect":721,"nect":722,"Ġnect":723,"Ġblackberry":724,"oney":725,"Ġhoney":726,"arine":727,"dew":728,"Ġnectarine":729,"Ġhoneydew":730,"che":731,"ly":732,"Ġly":733,"chee":734,"Ġlychee":735,"kr":736,"Ġokr":737,"Ġokra":738,"go":739,"lum":740,"Ġplum":741,"ango":742,"Ġmango":743,"Ġban":744,"ana":745,"Ġapple":746,"Ġbanana":747,"gran":748,"Ġrasp":749,"Ġpome":750,"granate":751,"Ġraspberry":752,"Ġpomegranate":753,"Ġfish":754,"Ġpomel":755,"Ġpomelo":756,"elon":757,"Ġmelon":758,"Ġdate":759,"ackfruit":760,"Ġpear":761,"Ġjackfruit":762,"uav":763,"anger":764,"Ġguav":765,"Ġtanger":766,"Ġguava":767,"Ġtangerine":768,"ian":769,"voc":770,"urian":771,"Ġdurian":772,"Ġavoc":773,"ado":774,"Ġavocado":775,"ay":776,"Ġpap":777,"arfruit":778,"Ġstarfruit":779,"aya":780,"Ġpapaya":781,"raw":782,"Ġstraw":783,"Ġstrawberry":784,"Ġoli":785,"Ġolive":786,"ric":787,"Ġblueberry":788,"Ġapric":789,"Ġapricot":790,"Ġli":791,"Ġtam":792,"arind":793,"Ġlime":794,"Ġtamarind":795}